// Converted from sbd_model.tflite using a Python script

#ifndef SBD_MODEL_H
#define SBD_MODEL_H

const unsigned char sbd_model_tflite[] = {
  0x20, 0x00, 0x00, 0x00, 0x54, 0x46, 0x4c, 0x33, 0x00, 0x00, 0x00, 0x00, 0x14, 0x00, 0x20, 0x00, 
  0x1c, 0x00, 0x18, 0x00, 0x14, 0x00, 0x10, 0x00, 0x0c, 0x00, 0x00, 0x00, 0x08, 0x00, 0x04, 0x00, 
  0x14, 0x00, 0x00, 0x00, 0x1c, 0x00, 0x00, 0x00, 0x88, 0x00, 0x00, 0x00, 0xe0, 0x00, 0x00, 0x00, 
  0xfc, 0x0f, 0x00, 0x00, 0x0c, 0x10, 0x00, 0x00, 0xb4, 0x18, 0x00, 0x00, 0x03, 0x00, 0x00, 0x00, 
  0x01, 0x00, 0x00, 0x00, 0x04, 0x00, 0x00, 0x00, 0xb2, 0xee, 0xff, 0xff, 0x0c, 0x00, 0x00, 0x00, 
  0x1c, 0x00, 0x00, 0x00, 0x38, 0x00, 0x00, 0x00, 0x0f, 0x00, 0x00, 0x00, 0x73, 0x65, 0x72, 0x76, 
  0x69, 0x6e, 0x67, 0x5f, 0x64, 0x65, 0x66, 0x61, 0x75, 0x6c, 0x74, 0x00, 0x01, 0x00, 0x00, 0x00, 
  0x04, 0x00, 0x00, 0x00, 0x94, 0xff, 0xff, 0xff, 0x0d, 0x00, 0x00, 0x00, 0x04, 0x00, 0x00, 0x00, 
  0x07, 0x00, 0x00, 0x00, 0x64, 0x65, 0x6e, 0x73, 0x65, 0x5f, 0x31, 0x00, 0x01, 0x00, 0x00, 0x00, 
  0x04, 0x00, 0x00, 0x00, 0x8a, 0xf0, 0xff, 0xff, 0x04, 0x00, 0x00, 0x00, 0x0f, 0x00, 0x00, 0x00, 
  0x65, 0x6d, 0x62, 0x65, 0x64, 0x64, 0x69, 0x6e, 0x67, 0x5f, 0x69, 0x6e, 0x70, 0x75, 0x74, 0x00, 
  0x02, 0x00, 0x00, 0x00, 0x34, 0x00, 0x00, 0x00, 0x04, 0x00, 0x00, 0x00, 0xdc, 0xff, 0xff, 0xff, 
  0x10, 0x00, 0x00, 0x00, 0x04, 0x00, 0x00, 0x00, 0x13, 0x00, 0x00, 0x00, 0x43, 0x4f, 0x4e, 0x56, 
  0x45, 0x52, 0x53, 0x49, 0x4f, 0x4e, 0x5f, 0x4d, 0x45, 0x54, 0x41, 0x44, 0x41, 0x54, 0x41, 0x00, 
  0x08, 0x00, 0x0c, 0x00, 0x08, 0x00, 0x04, 0x00, 0x08, 0x00, 0x00, 0x00, 0x0f, 0x00, 0x00, 0x00, 
  0x04, 0x00, 0x00, 0x00, 0x13, 0x00, 0x00, 0x00, 0x6d, 0x69, 0x6e, 0x5f, 0x72, 0x75, 0x6e, 0x74, 
  0x69, 0x6d, 0x65, 0x5f, 0x76, 0x65, 0x72, 0x73, 0x69, 0x6f, 0x6e, 0x00, 0x11, 0x00, 0x00, 0x00, 
  0x18, 0x0f, 0x00, 0x00, 0x10, 0x0f, 0x00, 0x00, 0xf8, 0x0e, 0x00, 0x00, 0xdc, 0x0e, 0x00, 0x00, 
  0xbc, 0x0e, 0x00, 0x00, 0x6c, 0x0e, 0x00, 0x00, 0xdc, 0x03, 0x00, 0x00, 0xc4, 0x00, 0x00, 0x00, 
  0xbc, 0x00, 0x00, 0x00, 0xb4, 0x00, 0x00, 0x00, 0xac, 0x00, 0x00, 0x00, 0xa4, 0x00, 0x00, 0x00, 
  0x9c, 0x00, 0x00, 0x00, 0x94, 0x00, 0x00, 0x00, 0x8c, 0x00, 0x00, 0x00, 0x6c, 0x00, 0x00, 0x00, 
  0x04, 0x00, 0x00, 0x00, 0x4a, 0xf1, 0xff, 0xff, 0x04, 0x00, 0x00, 0x00, 0x58, 0x00, 0x00, 0x00, 
  0x0c, 0x00, 0x00, 0x00, 0x08, 0x00, 0x0e, 0x00, 0x08, 0x00, 0x04, 0x00, 0x08, 0x00, 0x00, 0x00, 
  0x10, 0x00, 0x00, 0x00, 0x28, 0x00, 0x00, 0x00, 0x00, 0x00, 0x06, 0x00, 0x08, 0x00, 0x04, 0x00, 
  0x06, 0x00, 0x00, 0x00, 0x04, 0x00, 0x00, 0x00, 0x01, 0x00, 0x00, 0x00, 0xeb, 0x03, 0x00, 0x00, 
  0x00, 0x00, 0x0a, 0x00, 0x10, 0x00, 0x0c, 0x00, 0x08, 0x00, 0x04, 0x00, 0x0a, 0x00, 0x00, 0x00, 
  0x02, 0x00, 0x00, 0x00, 0x02, 0x00, 0x00, 0x00, 0x04, 0x00, 0x00, 0x00, 0x06, 0x00, 0x00, 0x00, 
  0x32, 0x2e, 0x31, 0x35, 0x2e, 0x30, 0x00, 0x00, 0xae, 0xf1, 0xff, 0xff, 0x04, 0x00, 0x00, 0x00, 
  0x10, 0x00, 0x00, 0x00, 0x31, 0x2e, 0x31, 0x34, 0x2e, 0x30, 0x00, 0x00, 0x00, 0x00, 0x00, 0x00, 
  0x00, 0x00, 0x00, 0x00, 0xbc, 0xe9, 0xff, 0xff, 0xc0, 0xe9, 0xff, 0xff, 0xc4, 0xe9, 0xff, 0xff, 
  0xc8, 0xe9, 0xff, 0xff, 0xcc, 0xe9, 0xff, 0xff, 0xd0, 0xe9, 0xff, 0xff, 0xd4, 0xe9, 0xff, 0xff, 
  0xe6, 0xf1, 0xff, 0xff, 0x04, 0x00, 0x00, 0x00, 0x08, 0x03, 0x00, 0x00, 0x1f, 0xf6, 0x0e, 0x02, 
  0x00, 0xf2, 0x0b, 0xeb, 0x23, 0xfa, 0x31, 0xef, 0x30, 0xd2, 0x24, 0xeb, 0x19, 0xd7, 0x11, 0xfe, 
  0x08, 0x2c, 0x11, 0xce, 0xe6, 0xe0, 0x15, 0xfa, 0x2d, 0xd5, 0x0e, 0xeb, 0x3f, 0x20, 0x0b, 0xff, 
  0xe8, 0x12, 0xdc, 0xf6, 0x1b, 0x04, 0x35, 0x40, 0xe9, 0xb7, 0x07, 0x09, 0x04, 0xef, 0xf3, 0x1d, 
  0x23, 0x00, 0x26, 0xca, 0x09, 0xea, 0x25, 0x24, 0x05, 0xf7, 0xe1, 0x22, 0x14, 0xea, 0x11, 0x06, 
  0x15, 0xfd, 0xd5, 0xe0, 0xd5, 0xde, 0x3c, 0xbb, 0x3c, 0xde, 0xfd, 0xcb, 0xca, 0xd6, 0x42, 0x06, 
  0x21, 0xf9, 0x29, 0x1b, 0xee, 0xfa, 0x15, 0xf1, 0x0e, 0x1c, 0xef, 0xfa, 0x3f, 0x30, 0x20, 0x1a, 
  0x33, 0xf5, 0xfc, 0x18, 0xf2, 0xc1, 0x11, 0x02, 0x29, 0xd8, 0x28, 0xcc, 0x38, 0xd4, 0x2d, 0x3b, 
  0xf6, 0xf2, 0xdd, 0xfc, 0x35, 0xdd, 0x43, 0x2c, 0x09, 0xed, 0xe3, 0xf0, 0x2a, 0xeb, 0xcd, 0xce, 
  0xfd, 0xc6, 0x13, 0xaf, 0xf0, 0xd9, 0x0d, 0x20, 0x11, 0xde, 0xeb, 0xe8, 0x4d, 0x11, 0x17, 0x1e, 
  0xe7, 0xed, 0xce, 0x01, 0x3c, 0x1d, 0x0e, 0x1d, 0xd4, 0x16, 0xf4, 0x00, 0x2f, 0x26, 0x09, 0x30, 
  0x02, 0x05, 0x08, 0xec, 0x12, 0xfd, 0x16, 0xea, 0x18, 0xeb, 0x09, 0xfe, 0x21, 0xfc, 0x1f, 0x04, 
  0xf9, 0x03, 0xd5, 0x0b, 0x1c, 0x09, 0x0e, 0x0a, 0x08, 0x2b, 0x16, 0xf7, 0x3e, 0xd3, 0x38, 0x1c, 
  0xda, 0xf0, 0xd8, 0x2d, 0x42, 0x0d, 0x11, 0x0f, 0xc2, 0x12, 0xce, 0x13, 0x14, 0xf5, 0x15, 0x37, 
  0x1f, 0x06, 0xfc, 0x17, 0xd0, 0x1f, 0xd1, 0xeb, 0x20, 0xbc, 0x30, 0xb2, 0xd1, 0x3b, 0xbc, 0xcf, 
  0x20, 0xff, 0x4b, 0xab, 0xc3, 0x16, 0xc9, 0xce, 0x40, 0xaa, 0x31, 0xc9, 0xe9, 0x31, 0xca, 0xcf, 
  0xf5, 0xc4, 0x3e, 0xd0, 0xd3, 0x24, 0xd9, 0xcf, 0x07, 0xe1, 0x47, 0xe5, 0xbb, 0x37, 0xea, 0xca, 
  0x48, 0xac, 0x54, 0xd2, 0xe0, 0x21, 0xea, 0xef, 0xfe, 0xc0, 0x1c, 0xd0, 0xbf, 0xfd, 0xe6, 0xde, 
  0x2a, 0xd6, 0x35, 0xeb, 0xda, 0x23, 0xc7, 0xe6, 0x03, 0xb8, 0x46, 0xbd, 0xe6, 0xf8, 0xe8, 0xe1, 
  0x38, 0xf2, 0x43, 0xf2, 0xcf, 0x2e, 0x15, 0x0f, 0x3b, 0xcb, 0x28, 0xc3, 0x80, 0xa6, 0x42, 0x6c, 
  0x4f, 0x9b, 0x7e, 0x65, 0x00, 0x0f, 0x06, 0x00, 0x0e, 0x11, 0xf0, 0x01, 0x0e, 0xf7, 0xf5, 0x06, 
  0x0d, 0xf3, 0xff, 0x08, 0xee, 0xc2, 0x33, 0x2d, 0x39, 0xdc, 0x3c, 0xcf, 0x0f, 0xed, 0x14, 0xf6, 
  0xf3, 0x0b, 0xf1, 0xf3, 0x8c, 0xba, 0x24, 0x7b, 0x57, 0x8a, 0x7f, 0x40, 0x37, 0x24, 0xf0, 0xe3, 
  0xf2, 0x16, 0x17, 0xd1, 0xd2, 0xa0, 0x38, 0x66, 0xe2, 0xc0, 0x42, 0x05, 0x0e, 0x00, 0xfd, 0x04, 
  0x0c, 0xed, 0xfa, 0xee, 0xef, 0x0f, 0x10, 0x0e, 0x01, 0xf8, 0xf5, 0x0a, 0xc0, 0x24, 0xd0, 0x3d, 
  0x12, 0xb0, 0x50, 0xb7, 0x18, 0xf5, 0xff, 0xfc, 0xee, 0xdc, 0x00, 0xee, 0xb0, 0x59, 0xf2, 0x3f, 
  0x59, 0xa2, 0x7a, 0x96, 0xfe, 0xe6, 0x1f, 0x22, 0xf0, 0xd0, 0xf6, 0x04, 0x1e, 0x3b, 0xe4, 0xf3, 
  0xd2, 0xed, 0x0c, 0xb6, 0x0a, 0xf1, 0xf7, 0x00, 0xe2, 0xed, 0x15, 0xe3, 0x0f, 0xf4, 0xed, 0x13, 
  0x04, 0xf8, 0xfb, 0x00, 0xf7, 0xf1, 0xed, 0x03, 0x06, 0x02, 0x11, 0xf6, 0xfd, 0xed, 0x09, 0xf3, 
  0xf8, 0x03, 0xfc, 0x09, 0xed, 0x3a, 0x2a, 0x32, 0x4a, 0xc9, 0x3a, 0xb2, 0x07, 0x12, 0x0d, 0x06, 
  0x08, 0x0d, 0x02, 0xfc, 0x0b, 0xe6, 0xf5, 0xf4, 0x05, 0x17, 0xfb, 0xdf, 0xfb, 0x0f, 0x0f, 0x09, 
  0x08, 0x02, 0x06, 0x08, 0xd9, 0xe6, 0x28, 0x3d, 0x21, 0xec, 0x29, 0x25, 0xf0, 0x00, 0x09, 0xfc, 
  0xed, 0xf0, 0x09, 0xf7, 0x01, 0x12, 0x06, 0xfa, 0x0a, 0xf0, 0x10, 0xfd, 0x09, 0xf6, 0xed, 0x0d, 
  0x0f, 0x09, 0xf2, 0xed, 0x13, 0x06, 0x07, 0xec, 0xfe, 0xfb, 0xfa, 0x08, 0x01, 0xee, 0xef, 0xfc, 
  0xf4, 0x10, 0xf6, 0x10, 0xf6, 0xfb, 0x09, 0xfc, 0xfe, 0xf2, 0x0d, 0x03, 0xec, 0xff, 0xf4, 0x04, 
  0xf6, 0x07, 0x10, 0x0a, 0x5b, 0x64, 0xa4, 0xab, 0xa5, 0x56, 0x9e, 0x9a, 0x12, 0x0e, 0x0c, 0x04, 
  0xec, 0xf7, 0xf8, 0x12, 0x02, 0x01, 0x12, 0xf9, 0xfa, 0x02, 0x0f, 0x04, 0xee, 0xf5, 0x0c, 0x06, 
  0x06, 0x0c, 0x09, 0x13, 0xf8, 0x11, 0x0b, 0x03, 0xed, 0x0a, 0x0e, 0xed, 0x07, 0x08, 0x04, 0x0a, 
  0x01, 0x0e, 0xfb, 0x03, 0xf7, 0xf3, 0xf3, 0x12, 0x0d, 0x10, 0x13, 0xec, 0x01, 0x05, 0xf3, 0xf3, 
  0x10, 0x01, 0x07, 0xfb, 0x04, 0x01, 0xfe, 0xf7, 0xf4, 0x0d, 0x10, 0x09, 0xf3, 0xef, 0xfe, 0x02, 
  0xf6, 0x0d, 0x04, 0xf1, 0xf2, 0xfc, 0xf1, 0x0e, 0x11, 0xf5, 0x04, 0xfb, 0xef, 0x0f, 0x04, 0x07, 
  0x01, 0xf0, 0xf4, 0xfe, 0xf5, 0x09, 0x04, 0x11, 0x0b, 0xee, 0x07, 0x02, 0x01, 0xf4, 0x13, 0x04, 
  0xf7, 0xee, 0x0c, 0x13, 0xef, 0x0a, 0x14, 0xfe, 0xfe, 0x0d, 0xf0, 0xff, 0x02, 0xf5, 0xff, 0xfe, 
  0xee, 0x07, 0xf5, 0xf0, 0x0b, 0x0d, 0x14, 0x11, 0xf4, 0x10, 0xfb, 0x0b, 0xf0, 0x08, 0x0b, 0xf5, 
  0xf3, 0xfd, 0x05, 0xf2, 0xf8, 0xff, 0x0d, 0xf6, 0x07, 0xf3, 0x05, 0xf1, 0xf2, 0xf4, 0x04, 0x0c, 
  0x02, 0xf2, 0xef, 0x0e, 0x0f, 0xf2, 0x0a, 0x05, 0xff, 0x0f, 0xf6, 0xf7, 0xfb, 0x09, 0x08, 0x03, 
  0x0e, 0x00, 0xf7, 0x14, 0xf7, 0x05, 0xf0, 0x07, 0xf4, 0x03, 0x09, 0x0f, 0x05, 0xf9, 0xfb, 0xf1, 
  0xfd, 0xfc, 0xef, 0xf1, 0x06, 0xed, 0x12, 0xf4, 0xf8, 0xf7, 0xed, 0xf6, 0xfd, 0xfc, 0x0e, 0x04, 
  0x13, 0xf3, 0xf4, 0xfd, 0xf4, 0xf6, 0x0a, 0x03, 0x13, 0x14, 0xfe, 0xf0, 0x13, 0x0a, 0xfa, 0x07, 
  0x0f, 0x12, 0x11, 0x06, 0xfa, 0xf4, 0xff, 0xff, 0x04, 0x00, 0x00, 0x00, 0x80, 0x0a, 0x00, 0x00, 
  0x01, 0xdd, 0x00, 0x1d, 0x2e, 0x1f, 0x33, 0x26, 0xef, 0xf1, 0x06, 0xe0, 0x1d, 0xe1, 0xec, 0xdb, 
  0x16, 0xf0, 0x01, 0x18, 0xdd, 0x0e, 0x16, 0xf5, 0xc5, 0x25, 0x0a, 0xeb, 0x1d, 0xe6, 0x01, 0x22, 
  0xed, 0xf2, 0x13, 0xfe, 0x06, 0xef, 0x07, 0x08, 0xea, 0x0d, 0xda, 0x26, 0x09, 0xf2, 0x04, 0x13, 
  0x0e, 0xde, 0x25, 0x1b, 0x24, 0x05, 0x0b, 0x25, 0xfa, 0xde, 0xf5, 0xe6, 0x1d, 0xef, 0xe2, 0xe2, 
  0x02, 0x13, 0x1b, 0x2b, 0x0b, 0x10, 0x0e, 0xee, 0xe1, 0x1b, 0x27, 0x2d, 0xfe, 0x07, 0xe2, 0x00, 
  0xfd, 0xe5, 0xd9, 0xbe, 0xf2, 0x2c, 0xe5, 0x05, 0xe7, 0xd7, 0x18, 0xfe, 0x1f, 0x14, 0xf6, 0x1b, 
  0xee, 0xd0, 0x26, 0xea, 0x19, 0x1e, 0x12, 0xf3, 0x20, 0x12, 0xd9, 0x3a, 0xea, 0x14, 0x2a, 0x32, 
  0xd9, 0x25, 0x11, 0x2a, 0x08, 0x0d, 0xe1, 0x33, 0xf5, 0xdf, 0xe9, 0xe5, 0xf0, 0x07, 0x19, 0xf4, 
  0x23, 0xfa, 0x09, 0x2b, 0x2e, 0x06, 0x1f, 0xed, 0xff, 0xeb, 0x2e, 0xe4, 0xe5, 0x16, 0xfe, 0xe4, 
  0x15, 0x20, 0x02, 0xf1, 0x02, 0x0a, 0x1f, 0x0e, 0x27, 0xd3, 0x13, 0x14, 0x10, 0xfc, 0x03, 0xeb, 
  0xff, 0xda, 0x25, 0xe7, 0x0c, 0xfe, 0xdd, 0x21, 0x16, 0xf9, 0xd4, 0x04, 0xbc, 0x1e, 0x09, 0x3c, 
  0x33, 0xed, 0x2f, 0xe7, 0xfe, 0x01, 0xde, 0x17, 0x19, 0xff, 0x39, 0x08, 0xe1, 0x30, 0xe4, 0x1d, 
  0xfd, 0x05, 0x21, 0xfe, 0xd6, 0x38, 0xf8, 0x0a, 0x13, 0xe4, 0x05, 0xe3, 0x03, 0x18, 0xda, 0x03, 
  0xf6, 0x01, 0xee, 0xd3, 0x0a, 0x21, 0xbd, 0x4d, 0xca, 0xe8, 0x31, 0x1f, 0x48, 0x31, 0x05, 0xfd, 
  0xe7, 0xd6, 0x56, 0xc6, 0xe9, 0xf8, 0xe3, 0x4c, 0xda, 0xc6, 0x18, 0x4d, 0x43, 0xfb, 0xea, 0x17, 
  0x4b, 0xe0, 0x1f, 0x50, 0xe8, 0xf8, 0x00, 0x3c, 0xb9, 0xea, 0xef, 0xf8, 0x42, 0x00, 0xf1, 0x12, 
  0x5f, 0x2d, 0xf3, 0xa5, 0xbd, 0x6b, 0xd1, 0xad, 0x1c, 0x4d, 0xaa, 0xa4, 0xe3, 0x4d, 0xc6, 0xf1, 
  0xea, 0x26, 0xbc, 0xeb, 0xe0, 0x3f, 0xde, 0xfb, 0xe2, 0x0d, 0x0b, 0x11, 0xcf, 0x14, 0xff, 0x0b, 
  0x1e, 0x04, 0xe6, 0xc1, 0xe8, 0x39, 0x14, 0x0d, 0x2c, 0xfa, 0xcd, 0xee, 0x0f, 0xe8, 0x00, 0xf7, 
  0x05, 0x12, 0xc8, 0xc9, 0xc3, 0x02, 0x02, 0xe7, 0x01, 0x33, 0xe4, 0x03, 0xfd, 0x33, 0x13, 0xf5, 
  0x23, 0xe8, 0xcc, 0xe3, 0x19, 0x21, 0xd9, 0x11, 0xe3, 0x01, 0xd1, 0x1b, 0xf2, 0xf1, 0xdc, 0xd4, 
  0x06, 0xfb, 0xdb, 0x08, 0xf2, 0x04, 0xfd, 0x27, 0x38, 0xcd, 0xfb, 0xe7, 0xc0, 0x42, 0xaa, 0x3c, 
  0x0d, 0xc3, 0x15, 0xf6, 0xcc, 0x09, 0xa9, 0x2f, 0x4d, 0xf0, 0xf6, 0xf0, 0xdf, 0x07, 0xab, 0x36, 
  0x1e, 0xcb, 0x27, 0x15, 0xc4, 0x1a, 0xd3, 0xee, 0xe3, 0xba, 0x21, 0xf0, 0xe0, 0x4c, 0xed, 0x3d, 
  0xf5, 0xc3, 0x38, 0xee, 0x1f, 0x1c, 0x17, 0x4b, 0x19, 0xdb, 0x49, 0xd6, 0xf2, 0x43, 0xc0, 0x06, 
  0xef, 0xd6, 0x31, 0x37, 0x29, 0xcd, 0xea, 0x0d, 0x51, 0xe5, 0x43, 0x3c, 0xaf, 0x01, 0xb9, 0x13, 
  0xfe, 0x1b, 0xd2, 0xf0, 0x3d, 0xf6, 0x18, 0x17, 0x6d, 0x29, 0xea, 0xca, 0xeb, 0x62, 0xcf, 0xbc, 
  0x2a, 0x0a, 0xd2, 0xa7, 0xae, 0x22, 0xc5, 0x0d, 0x25, 0x30, 0xf7, 0xd2, 0xe7, 0x14, 0x11, 0x13, 
  0xe8, 0x29, 0x12, 0xfa, 0xfd, 0x04, 0xf7, 0x0a, 0xea, 0xeb, 0xbe, 0xd0, 0xc6, 0x37, 0x1c, 0xef, 
  0x17, 0x1b, 0xe8, 0xcb, 0x11, 0x3b, 0x24, 0xcf, 0x20, 0x2a, 0xe3, 0xe6, 0xde, 0x20, 0xe5, 0xd0, 
  0xef, 0xf6, 0xf5, 0xc8, 0xc4, 0xf9, 0xd1, 0x13, 0xfd, 0x1b, 0xe6, 0xcb, 0xf6, 0xf9, 0xdc, 0xdb, 
  0x14, 0x06, 0xe5, 0x1b, 0x10, 0xfc, 0xdf, 0x07, 0xe8, 0x0e, 0x10, 0x09, 0x17, 0x10, 0xf5, 0x04, 
  0x13, 0x16, 0xe4, 0xfe, 0x26, 0xc0, 0x46, 0xc0, 0x00, 0x28, 0x30, 0x0c, 0x0e, 0x18, 0x18, 0xf1, 
  0xfa, 0x4e, 0x24, 0xf5, 0x23, 0xf8, 0x16, 0xd7, 0xe7, 0x53, 0xdd, 0xdb, 0x1c, 0xd6, 0x33, 0xde, 
  0x0f, 0x00, 0xf9, 0xed, 0xd7, 0xbd, 0x0a, 0xc0, 0xf7, 0x0a, 0x0d, 0xbb, 0xdc, 0xea, 0x08, 0xdd, 
  0xf3, 0x15, 0xc5, 0x22, 0xdc, 0x0e, 0xf7, 0xe6, 0x11, 0x44, 0xfa, 0xcc, 0xc6, 0x2b, 0x18, 0xce, 
  0xa8, 0x54, 0xf4, 0xc4, 0x3c, 0xe2, 0x58, 0xca, 0xec, 0x09, 0x11, 0x19, 0x35, 0xd2, 0xef, 0xc2, 
  0xb5, 0xcc, 0x2f, 0x1a, 0x5d, 0x9f, 0x73, 0x5e, 0xb1, 0x08, 0x10, 0x0e, 0x23, 0xa2, 0x47, 0xb1, 
  0x08, 0xf4, 0x2d, 0x2d, 0xe2, 0x31, 0x27, 0xc3, 0xe5, 0xd3, 0x02, 0xda, 0x0a, 0x13, 0xdd, 0xb3, 
  0x21, 0x02, 0xf1, 0x1f, 0x28, 0x14, 0x2d, 0xce, 0x42, 0x0a, 0x16, 0x2e, 0x07, 0x13, 0xd1, 0xd7, 
  0x29, 0x2f, 0xe3, 0xea, 0xf6, 0xeb, 0x06, 0xd5, 0x20, 0xd8, 0x20, 0xd3, 0xbe, 0xff, 0x00, 0xd7, 
  0x2e, 0xea, 0x0d, 0xe2, 0x0b, 0x09, 0x03, 0xeb, 0x0e, 0xec, 0xdf, 0x0f, 0xbf, 0x02, 0xb7, 0xda, 
  0x42, 0xf9, 0x0a, 0xf9, 0x09, 0xca, 0xde, 0xd9, 0xf1, 0x48, 0xe0, 0x14, 0x12, 0xe6, 0x3c, 0xae, 
  0x17, 0x25, 0x1f, 0x05, 0xfb, 0x24, 0x3c, 0xe7, 0xd3, 0x04, 0x17, 0x3d, 0xd9, 0x09, 0x16, 0xe9, 
  0x15, 0x50, 0xd4, 0xd4, 0xf5, 0x02, 0xf0, 0xd4, 0x02, 0x3a, 0x04, 0xd6, 0x21, 0xc4, 0x18, 0xdc, 
  0x25, 0x38, 0xf9, 0xcb, 0xf3, 0xfa, 0xb9, 0xda, 0xf4, 0x2a, 0xb6, 0x07, 0xd7, 0xe3, 0xf4, 0xbd, 
  0x55, 0x14, 0xc6, 0xde, 0xd4, 0x50, 0x02, 0xa0, 0x00, 0x2b, 0xca, 0xe4, 0x40, 0xc1, 0xff, 0xef, 
  0xdc, 0x61, 0x17, 0xfb, 0x33, 0xfa, 0xf8, 0xde, 0xa2, 0xaf, 0x2f, 0x21, 0x32, 0xcc, 0x76, 0x1d, 
  0xa8, 0x1f, 0x04, 0x5d, 0x43, 0xd9, 0x5d, 0xf3, 0x2e, 0xcf, 0xfd, 0x03, 0xda, 0x38, 0x19, 0xc0, 
  0x43, 0xea, 0x26, 0xcb, 0x1e, 0xdb, 0xe0, 0xdb, 0x41, 0x39, 0xe1, 0x1c, 0x07, 0x1b, 0x29, 0xdb, 
  0x0c, 0x16, 0x3b, 0xec, 0x23, 0xe7, 0xb9, 0x20, 0xfc, 0x0a, 0x3a, 0xec, 0x2f, 0x06, 0xdc, 0xf5, 
  0x29, 0x09, 0xfd, 0xed, 0xe7, 0x12, 0xdb, 0xec, 0x1f, 0xec, 0xde, 0xe7, 0xf5, 0x26, 0x0a, 0x19, 
  0x08, 0x28, 0xce, 0xd6, 0xed, 0x40, 0x08, 0xc7, 0xf9, 0xde, 0x0b, 0x0e, 0x17, 0xf6, 0x05, 0xff, 
  0x05, 0xe3, 0x19, 0xea, 0x0f, 0x1a, 0xf8, 0xe7, 0xdb, 0x01, 0xf6, 0x18, 0x20, 0xea, 0xd9, 0x19, 
  0xe1, 0xda, 0xd3, 0x17, 0x2f, 0x06, 0x14, 0x2a, 0xe8, 0xeb, 0x29, 0x0d, 0x1d, 0xee, 0x2a, 0xdb, 
  0xe6, 0x00, 0xe2, 0x0d, 0xee, 0xfa, 0x19, 0x18, 0x00, 0x02, 0x22, 0x22, 0x0b, 0x2a, 0x23, 0xf8, 
  0x11, 0x19, 0x27, 0xfb, 0xff, 0x06, 0xe7, 0x09, 0xf9, 0xea, 0x08, 0xf6, 0x14, 0x1a, 0x1e, 0x14, 
  0xea, 0x07, 0x0a, 0x1f, 0xd9, 0x1a, 0xf0, 0xf3, 0xf3, 0xd4, 0x1c, 0xe4, 0x10, 0xe3, 0x19, 0x30, 
  0xf7, 0xc6, 0x24, 0x1d, 0xff, 0x0f, 0x0a, 0xe8, 0x21, 0xca, 0x07, 0x0c, 0xd6, 0xfc, 0x21, 0xeb, 
  0xdc, 0xd5, 0xec, 0x2b, 0x07, 0xf3, 0x0e, 0xee, 0xcf, 0x19, 0xec, 0xfe, 0x25, 0x00, 0x25, 0xe2, 
  0xce, 0x11, 0x17, 0xef, 0xf7, 0xd9, 0x19, 0xf7, 0x09, 0xed, 0xf9, 0xf9, 0xf8, 0x26, 0xfd, 0x1f, 
  0xcc, 0xe8, 0x05, 0x1b, 0xe4, 0x0e, 0xf7, 0x2c, 0xd7, 0x26, 0x09, 0xea, 0x1b, 0xe5, 0x2c, 0x12, 
  0xe0, 0x25, 0x22, 0xe5, 0xf7, 0xdd, 0x1b, 0x0f, 0xe4, 0x0f, 0x07, 0x14, 0x37, 0x0a, 0xe0, 0x02, 
  0x03, 0xfe, 0xe7, 0xdf, 0x05, 0x39, 0xcd, 0xed, 0x15, 0xe9, 0x1b, 0xc6, 0xba, 0xed, 0xca, 0x14, 
  0x29, 0xaf, 0x0e, 0x09, 0xe5, 0xeb, 0xb9, 0x09, 0x2d, 0xb8, 0x0b, 0xc9, 0xaf, 0xf9, 0xea, 0x2f, 
  0x0b, 0xc4, 0x27, 0xe7, 0xab, 0x04, 0xf3, 0x1f, 0x17, 0x05, 0x21, 0x14, 0xef, 0x09, 0xd2, 0xf0, 
  0xd7, 0x0b, 0x07, 0x1c, 0x22, 0x0b, 0x06, 0x25, 0x1e, 0xf7, 0x09, 0x0c, 0xf1, 0x23, 0xc0, 0x0a, 
  0xc3, 0xa1, 0x32, 0x07, 0x2a, 0xb8, 0x1e, 0x18, 0xfb, 0xe3, 0x23, 0x0a, 0xa7, 0xf0, 0xb8, 0x46, 
  0xdb, 0x04, 0xd0, 0x03, 0x0d, 0xe1, 0xf6, 0xe5, 0x7e, 0x27, 0xca, 0x92, 0xb8, 0x4b, 0xb4, 0xd3, 
  0x56, 0x3f, 0xe8, 0xb3, 0x00, 0x31, 0xab, 0x07, 0xee, 0xf4, 0xc3, 0xc0, 0xc7, 0x1a, 0x00, 0x21, 
  0xdd, 0x12, 0xb8, 0xef, 0xf4, 0x07, 0x22, 0x1c, 0x2c, 0x16, 0xe5, 0xdd, 0xdf, 0x3b, 0xe6, 0x23, 
  0xde, 0x33, 0xf9, 0xf3, 0xd1, 0x01, 0xe9, 0x1d, 0xf4, 0x37, 0xe7, 0x0d, 0xd2, 0x1c, 0xdf, 0x24, 
  0xe0, 0x14, 0xe3, 0xc3, 0xe2, 0x01, 0xd0, 0xe3, 0x24, 0xee, 0xcc, 0xc7, 0xee, 0x34, 0xe5, 0x16, 
  0xe1, 0x21, 0xec, 0xd6, 0xef, 0x07, 0xd9, 0x22, 0x3b, 0x34, 0x2e, 0xf7, 0xd5, 0xec, 0xef, 0xf5, 
  0x33, 0x3f, 0xf7, 0xfb, 0x32, 0xcc, 0x02, 0xd8, 0x06, 0xfa, 0x18, 0xf1, 0x2c, 0x11, 0x46, 0xe4, 
  0x10, 0x43, 0xda, 0xed, 0xf4, 0xda, 0x57, 0xa3, 0xe9, 0x29, 0xf0, 0x09, 0x1d, 0x07, 0x47, 0xe0, 
  0x2e, 0x3a, 0xb7, 0xce, 0x2d, 0x0a, 0x3a, 0xcc, 0x1a, 0x28, 0xe4, 0xb6, 0xd9, 0xeb, 0x11, 0xf0, 
  0x08, 0x23, 0xbe, 0xda, 0x06, 0xaa, 0x47, 0xaa, 0x47, 0x3c, 0xda, 0xe5, 0xc9, 0x24, 0xbd, 0xa5, 
  0xd9, 0x13, 0xc8, 0xdc, 0x59, 0xc1, 0x48, 0xd4, 0xda, 0x3a, 0x00, 0xfe, 0x37, 0xc9, 0x1b, 0xbe, 
  0xbc, 0xcd, 0x4c, 0x78, 0x4b, 0x87, 0x52, 0x67, 0xfb, 0xeb, 0x36, 0x0d, 0x23, 0xb1, 0x18, 0xf2, 
  0x41, 0xe4, 0xdb, 0xe5, 0xca, 0xf3, 0xcb, 0xd7, 0x3e, 0xe3, 0x09, 0xf6, 0x12, 0xfc, 0x10, 0xeb, 
  0x3d, 0x04, 0xde, 0x01, 0x20, 0x1f, 0xf6, 0xff, 0x28, 0xcd, 0x1b, 0x27, 0xef, 0xd3, 0x14, 0xe2, 
  0x3b, 0x19, 0xf5, 0xe1, 0xfa, 0x20, 0x14, 0xe3, 0x15, 0xdc, 0xd3, 0xeb, 0xcf, 0x41, 0xb6, 0xcf, 
  0x40, 0xdd, 0xf7, 0xff, 0xd8, 0x05, 0xb7, 0x14, 0x4d, 0xe8, 0x23, 0xf7, 0xd8, 0x0f, 0xe4, 0x0a, 
  0x0a, 0xf3, 0xd5, 0xcd, 0xff, 0x28, 0xbd, 0x1d, 0x19, 0xc8, 0x32, 0xcd, 0xc0, 0x33, 0xb4, 0x10, 
  0x3b, 0xcc, 0xf2, 0xfe, 0xdb, 0xe4, 0xc6, 0x00, 0xfe, 0x02, 0x23, 0x17, 0xbc, 0x10, 0xed, 0x36, 
  0x20, 0xea, 0x13, 0x28, 0xf0, 0xe1, 0xb9, 0x00, 0xef, 0xfe, 0x46, 0xf2, 0xfa, 0x22, 0xe5, 0xf9, 
  0xca, 0x07, 0x16, 0xea, 0x2e, 0x07, 0xe9, 0x29, 0xfc, 0xf7, 0x47, 0x1e, 0x28, 0x2a, 0xae, 0x2d, 
  0xdf, 0xf7, 0x4c, 0x35, 0x37, 0xaf, 0xf1, 0x5e, 0x45, 0xc3, 0xf5, 0x0b, 0xaa, 0x17, 0xba, 0x3b, 
  0xe4, 0x02, 0x15, 0x2a, 0xfd, 0xe9, 0x10, 0xfd, 0x72, 0x42, 0xa9, 0xad, 0xeb, 0x3a, 0x8a, 0xc8, 
  0x01, 0x14, 0xa4, 0xa2, 0xc6, 0x2e, 0xf1, 0x09, 0x13, 0x1e, 0xba, 0xd4, 0xb1, 0x0f, 0xcc, 0xc9, 
  0xe1, 0x2f, 0xf2, 0x0d, 0x04, 0x15, 0xff, 0x0b, 0x05, 0x35, 0xf2, 0xfd, 0xea, 0x2c, 0xfd, 0xfc, 
  0xe8, 0x2d, 0xeb, 0xed, 0xcd, 0x0a, 0x00, 0x1d, 0xf1, 0xeb, 0xdf, 0xc8, 0xca, 0x29, 0x00, 0xe1, 
  0xd4, 0x37, 0xe3, 0xf1, 0xd7, 0x0b, 0x04, 0x16, 0xfd, 0xfb, 0xdd, 0xe6, 0xe5, 0xef, 0x0f, 0xfb, 
  0xec, 0xf8, 0xd1, 0xef, 0x16, 0x0b, 0xf0, 0xf2, 0xf5, 0x22, 0x15, 0x14, 0x16, 0xf1, 0x08, 0xba, 
  0x46, 0x60, 0x05, 0x0f, 0x13, 0xce, 0x11, 0xc4, 0xee, 0x00, 0x06, 0xfc, 0x35, 0x0d, 0x2b, 0xf6, 
  0xf6, 0xfc, 0xd8, 0xf1, 0x3a, 0xbe, 0x03, 0xbf, 0x13, 0x1a, 0xc3, 0xda, 0x20, 0xd4, 0x35, 0xe2, 
  0x19, 0x4f, 0x13, 0x18, 0x0b, 0xb2, 0xf6, 0xf2, 0x46, 0x0a, 0xe8, 0xc8, 0xba, 0x19, 0xc7, 0xb5, 
  0x14, 0x4f, 0xa8, 0x0a, 0xc4, 0xcc, 0x18, 0xbe, 0xff, 0x30, 0xee, 0xeb, 0xde, 0x16, 0x11, 0xc0, 
  0xb7, 0x20, 0xbd, 0xc5, 0x08, 0xb4, 0x42, 0x95, 0xd2, 0x44, 0xcc, 0x03, 0x57, 0xf2, 0xfd, 0xcb, 
  0xd5, 0xcd, 0x22, 0x1c, 0x2c, 0x91, 0x57, 0x20, 0xac, 0xfd, 0x2e, 0x09, 0x00, 0xd0, 0x43, 0xe3, 
  0x09, 0xcb, 0x1a, 0xf1, 0xd1, 0xed, 0xfb, 0xb2, 0xf7, 0xf0, 0xec, 0xf0, 0x2b, 0xcc, 0xff, 0xe2, 
  0x37, 0x36, 0x16, 0x0d, 0x10, 0xf7, 0x15, 0x18, 0x4f, 0x32, 0xe4, 0x24, 0xdd, 0xdf, 0xe8, 0x1b, 
  0xdc, 0xfa, 0x36, 0xec, 0x34, 0x10, 0xc4, 0xe6, 0x44, 0xf2, 0x39, 0x37, 0xbb, 0x2b, 0xd7, 0xdc, 
  0x05, 0xe8, 0x35, 0x0e, 0xf1, 0x0c, 0xf9, 0xc1, 0x54, 0x43, 0xcf, 0xfa, 0xe0, 0x43, 0xcc, 0x05, 
  0x43, 0xff, 0xfe, 0x1f, 0xd9, 0x0a, 0x19, 0xec, 0x1b, 0x26, 0xf2, 0x2b, 0x0c, 0x14, 0x24, 0xcf, 
  0x2c, 0x3a, 0x29, 0xed, 0xfe, 0x0f, 0xea, 0x04, 0x17, 0x41, 0x05, 0x12, 0x19, 0xdc, 0x17, 0xbc, 
  0x1f, 0x20, 0xdd, 0xbe, 0xea, 0x0d, 0xf7, 0xea, 0x46, 0x44, 0x05, 0x10, 0x16, 0xdb, 0x04, 0xc7, 
  0x63, 0x27, 0x03, 0xf0, 0xbe, 0x16, 0xbe, 0x00, 0x19, 0x08, 0xeb, 0x38, 0x0c, 0xd0, 0x1f, 0xc7, 
  0x52, 0x44, 0xb6, 0xf5, 0xc7, 0x47, 0xcc, 0xc4, 0xd5, 0x60, 0xa6, 0xfb, 0x52, 0xcc, 0x60, 0xb4, 
  0x18, 0x49, 0x13, 0x5b, 0x43, 0xcf, 0x57, 0xe5, 0x8d, 0xdc, 0x62, 0x7f, 0x31, 0x89, 0x3f, 0x76, 
  0xa3, 0xc4, 0x38, 0x36, 0x6a, 0xbf, 0x21, 0xaf, 0x43, 0x26, 0xf1, 0x2e, 0x26, 0x0a, 0xed, 0xe9, 
  0xf3, 0xdf, 0x3f, 0xf0, 0x0a, 0xe7, 0xd0, 0xf8, 0x41, 0x0b, 0x07, 0x28, 0xf8, 0xdb, 0xdf, 0x18, 
  0x02, 0x23, 0xdd, 0x0d, 0xdb, 0x04, 0x04, 0xe7, 0x17, 0xdd, 0xf7, 0xd7, 0x29, 0xce, 0x19, 0xf5, 
  0x12, 0x08, 0xe9, 0xf9, 0xc7, 0x14, 0xbe, 0xf5, 0x0e, 0xda, 0x14, 0xdf, 0xbc, 0x08, 0xed, 0x1b, 
  0x0d, 0xfc, 0x00, 0xf4, 0xf8, 0x06, 0xb8, 0xda, 0x26, 0xec, 0x30, 0x14, 0xca, 0xe3, 0xbb, 0xc2, 
  0x6b, 0xea, 0x09, 0x2b, 0xf3, 0xe7, 0xba, 0xc4, 0x6b, 0x06, 0x07, 0x1d, 0xd8, 0x07, 0x03, 0xbd, 
  0x42, 0x47, 0x28, 0x25, 0xef, 0xf4, 0x17, 0xc7, 0x45, 0x3a, 0x02, 0x04, 0x13, 0x10, 0xbb, 0xd3, 
  0x53, 0x0c, 0x04, 0xea, 0x0e, 0xec, 0x16, 0xc9, 0x67, 0x2d, 0xca, 0xff, 0xea, 0xff, 0xd4, 0xfa, 
  0x32, 0x22, 0x1d, 0xec, 0xd7, 0x0c, 0xdf, 0xad, 0x32, 0x4b, 0xca, 0x0b, 0x0a, 0xf3, 0x51, 0xc6, 
  0xfd, 0x47, 0xe8, 0x0f, 0x56, 0xa9, 0x39, 0xae, 0xbd, 0x6b, 0x10, 0x56, 0x50, 0x84, 0x63, 0x8e, 
  0xf9, 0x69, 0xb5, 0xd7, 0x07, 0xe3, 0xfa, 0xe0, 0x09, 0xf7, 0x4a, 0xee, 0x26, 0xc3, 0x5a, 0xfb, 
  0x1a, 0xa7, 0x20, 0x24, 0x10, 0xe1, 0x24, 0x21, 0xfa, 0xb2, 0x1f, 0xf4, 0x32, 0xd7, 0x0a, 0xdc, 
  0x39, 0xdf, 0x65, 0x55, 0x5a, 0xd6, 0x2e, 0x21, 0x18, 0xdf, 0x3a, 0x04, 0x1a, 0xf6, 0x26, 0x2a, 
  0xcf, 0xb0, 0x17, 0x10, 0x0f, 0xce, 0x01, 0x0d, 0xfa, 0xfb, 0x42, 0x79, 0x23, 0xed, 0x1c, 0x46, 
  0x28, 0xe1, 0x4b, 0x51, 0x09, 0xf3, 0xc6, 0x27, 0x43, 0x08, 0x07, 0x0d, 0x2c, 0x00, 0x2b, 0xdd, 
  0xf1, 0x14, 0x1e, 0x20, 0x17, 0x0b, 0x29, 0xe0, 0xee, 0xfe, 0x07, 0x21, 0x1f, 0xe9, 0x1b, 0x25, 
  0x13, 0xd9, 0x17, 0xfc, 0x32, 0x2c, 0x07, 0x05, 0xfc, 0xe8, 0x34, 0xf1, 0xf5, 0x14, 0x12, 0xe6, 
  0xd2, 0xf6, 0xe8, 0xed, 0xf9, 0x05, 0x0e, 0xfc, 0xe8, 0xfe, 0x05, 0xea, 0x18, 0xe7, 0x14, 0x0c, 
  0xd4, 0xd7, 0xe9, 0x2b, 0xdd, 0xec, 0x10, 0x1f, 0x0a, 0xe2, 0x21, 0x07, 0xe6, 0xec, 0x01, 0xfc, 
  0xe3, 0x0c, 0xfa, 0xfb, 0x22, 0x02, 0xe1, 0x00, 0x24, 0xdf, 0xe6, 0xf3, 0x0b, 0x2e, 0xed, 0x3e, 
  0x17, 0xfa, 0xe5, 0x12, 0x13, 0x2e, 0x17, 0x21, 0xe0, 0x1e, 0x31, 0x02, 0xfa, 0xe1, 0x1f, 0x27, 
  0x26, 0xec, 0x11, 0x03, 0x0f, 0x03, 0x13, 0x00, 0xd5, 0xf1, 0xf8, 0x23, 0xfe, 0xfb, 0x17, 0x1e, 
  0xef, 0xdc, 0xfe, 0xef, 0x0f, 0xea, 0xe5, 0xfa, 0xe7, 0xed, 0xe3, 0x2d, 0xd5, 0xd8, 0x2a, 0xef, 
  0xda, 0xe8, 0x2a, 0x21, 0x0c, 0x1c, 0xfb, 0xf2, 0x05, 0xf3, 0x1f, 0xe3, 0xfc, 0xfd, 0x3b, 0xf3, 
  0xe1, 0xd4, 0x24, 0xed, 0x26, 0xd8, 0xf5, 0xd8, 0xdc, 0xee, 0x15, 0xdb, 0x1a, 0x2f, 0x2b, 0x02, 
  0xf1, 0xde, 0x2f, 0xdd, 0x32, 0x30, 0x0e, 0x01, 0x21, 0xef, 0x1c, 0x2a, 0xce, 0xde, 0xe9, 0xce, 
  0x2f, 0x38, 0xdd, 0x1a, 0xf1, 0xba, 0xfe, 0xd6, 0xf3, 0x50, 0xdb, 0xf9, 0x24, 0xdb, 0x0d, 0xbd, 
  0x0a, 0x4f, 0x03, 0x13, 0x0e, 0xf3, 0x3b, 0xee, 0xe2, 0x39, 0xfe, 0xfe, 0xeb, 0x18, 0x09, 0xd4, 
  0xf9, 0x23, 0x09, 0xe6, 0x16, 0xaa, 0x1e, 0xbb, 0x10, 0x0e, 0xf8, 0xb7, 0x03, 0xe3, 0xed, 0xea, 
  0x05, 0x1c, 0xaf, 0xfe, 0xad, 0xfd, 0xee, 0xd5, 0x27, 0x67, 0xd0, 0xe7, 0xe4, 0x00, 0x17, 0xd0, 
  0xc0, 0xfe, 0xe5, 0xa8, 0x2e, 0xf3, 0x46, 0xa2, 0xf4, 0x5b, 0xf9, 0x07, 0x38, 0xf1, 0x4c, 0xc8, 
  0xd0, 0xad, 0x1b, 0x30, 0x67, 0xca, 0x55, 0x24, 0x00, 0x25, 0x1a, 0x42, 0x12, 0xc6, 0x19, 0xdd, 
  0x27, 0xe6, 0x25, 0x1d, 0xce, 0x2e, 0xc8, 0xbd, 0x27, 0xc9, 0x0e, 0xb6, 0xde, 0x07, 0xdb, 0xd6, 
  0x23, 0x44, 0x41, 0x30, 0x10, 0x1c, 0xfb, 0x14, 0x2c, 0xe2, 0x1c, 0x24, 0x2d, 0xcc, 0xd3, 0x33, 
  0x16, 0xf0, 0x32, 0xd0, 0x2a, 0xbc, 0xf5, 0xcc, 0x0e, 0x2b, 0x22, 0x1f, 0xb8, 0x03, 0x07, 0x02, 
  0x38, 0xe0, 0xf1, 0x1c, 0x06, 0x16, 0xfc, 0xca, 0x34, 0x19, 0x14, 0xe6, 0x13, 0x1f, 0x09, 0xcd, 
  0xe7, 0x0b, 0xd4, 0x1b, 0x0b, 0x3d, 0xc9, 0x1c, 0xf3, 0xbd, 0xfe, 0xe3, 0x04, 0x01, 0xe5, 0xf9, 
  0x0b, 0xfb, 0xfd, 0x24, 0xd9, 0x1f, 0xf0, 0x07, 0x23, 0xcf, 0x1d, 0x19, 0xb6, 0xf8, 0xef, 0x1c, 
  0x17, 0x1c, 0xdc, 0xea, 0xed, 0xed, 0xd8, 0x08, 0x2a, 0xca, 0x04, 0xda, 0xe1, 0x1e, 0xdf, 0x29, 
  0x0f, 0xcc, 0x0a, 0x0f, 0x3c, 0xfa, 0xcf, 0x3c, 0xf3, 0xd7, 0x09, 0xd9, 0xec, 0x3b, 0xcc, 0x2e, 
  0xe0, 0xad, 0x39, 0xff, 0x3b, 0xd1, 0xd4, 0x30, 0x0b, 0xd2, 0x24, 0x3d, 0xd1, 0x00, 0xce, 0x65, 
  0xca, 0xfb, 0xd1, 0x00, 0x2d, 0xfd, 0x1e, 0xec, 0x27, 0x3b, 0xef, 0xba, 0xba, 0x49, 0xa3, 0xd5, 
  0x06, 0x1d, 0xcc, 0xf1, 0xa4, 0x46, 0xf9, 0x0d, 0x02, 0x2e, 0xb6, 0xe9, 0xca, 0x32, 0xf6, 0xe8, 
  0xf3, 0x30, 0xbc, 0x1a, 0xe0, 0x00, 0x1d, 0xc6, 0x26, 0xe8, 0xbd, 0xcb, 0xf5, 0xff, 0x13, 0xfc, 
  0xe1, 0x3c, 0xd7, 0xed, 0xdf, 0x22, 0xea, 0xe2, 0x39, 0x10, 0x0f, 0xd0, 0x14, 0x07, 0xe1, 0xf7, 
  0xe6, 0x19, 0xcc, 0xc2, 0xd5, 0xe6, 0x0e, 0xd4, 0xeb, 0x34, 0x03, 0xfe, 0xfd, 0x1d, 0xf4, 0x09, 
  0xe2, 0x1d, 0xee, 0xf3, 0x1b, 0x04, 0x28, 0xe4, 0x44, 0xfd, 0x12, 0x18, 0x0f, 0x17, 0x13, 0xed, 
  0x2c, 0x30, 0xe0, 0xda, 0xde, 0xea, 0xfb, 0xed, 0xf0, 0x0d, 0xc4, 0xf6, 0x29, 0x00, 0x01, 0xfe, 
  0xdd, 0x3d, 0xca, 0x14, 0xf8, 0xff, 0x4b, 0xa6, 0xe8, 0x20, 0xe6, 0xf7, 0x14, 0x11, 0xfe, 0xc1, 
  0xea, 0x46, 0x0c, 0x05, 0xf2, 0xd2, 0x32, 0xdb, 0x59, 0x01, 0xea, 0xfe, 0xb1, 0xf4, 0xf1, 0xd9, 
  0x1d, 0x49, 0xed, 0xd7, 0xca, 0xd5, 0x24, 0xa2, 0x18, 0x14, 0xb3, 0xc9, 0xf3, 0x46, 0xc9, 0xd2, 
  0xfa, 0xf8, 0xab, 0xd7, 0x49, 0xd5, 0x51, 0x9f, 0xcb, 0x0f, 0x13, 0x21, 0x36, 0xe6, 0x1b, 0xcb, 
  0xc3, 0xdc, 0x48, 0x47, 0x29, 0xbb, 0x43, 0x0c, 0xfe, 0xc9, 0xfd, 0x06, 0x36, 0xdf, 0x53, 0xd6, 
  0x35, 0xe9, 0xf1, 0xfd, 0xec, 0x29, 0x08, 0xfd, 0x3e, 0x08, 0x17, 0xb8, 0xe2, 0x29, 0xc1, 0xe0, 
  0x29, 0x1b, 0x1b, 0x37, 0x0c, 0x01, 0xd4, 0x13, 0x1d, 0xed, 0xfb, 0xf1, 0x1d, 0xd5, 0xfc, 0xde, 
  0x0a, 0x2c, 0xf9, 0x04, 0x19, 0xe9, 0xdb, 0x0c, 0x30, 0x2d, 0x37, 0xef, 0xd2, 0xf8, 0xc3, 0x17, 
  0x3b, 0x24, 0x30, 0x1b, 0x0a, 0x2b, 0x04, 0x06, 0x01, 0xde, 0xfc, 0xce, 0x10, 0x1a, 0xc8, 0xf2, 
  0x86, 0xff, 0xff, 0xff, 0x04, 0x00, 0x00, 0x00, 0x40, 0x00, 0x00, 0x00, 0x28, 0xf1, 0xff, 0xff, 
  0x67, 0xdd, 0xff, 0xff, 0xd0, 0xdc, 0xff, 0xff, 0x1a, 0x42, 0x00, 0x00, 0xd2, 0x43, 0x00, 0x00, 
  0xce, 0xed, 0xff, 0xff, 0x7b, 0xdb, 0xff, 0xff, 0x50, 0x3d, 0x00, 0x00, 0x13, 0xe6, 0xff, 0xff, 
  0xa5, 0x43, 0x00, 0x00, 0x83, 0x4d, 0x00, 0x00, 0xb7, 0x55, 0x00, 0x00, 0xc7, 0xec, 0xff, 0xff, 
  0xe9, 0x4e, 0x00, 0x00, 0xef, 0xe6, 0xff, 0xff, 0x56, 0x3b, 0x00, 0x00, 0xd2, 0xff, 0xff, 0xff, 
  0x04, 0x00, 0x00, 0x00, 0x10, 0x00, 0x00, 0x00, 0x28, 0x5c, 0x72, 0x9f, 0xa5, 0x0d, 0x43, 0xbe, 
  0x6c, 0x81, 0xd1, 0xcc, 0x20, 0xba, 0x61, 0xc0, 0xee, 0xff, 0xff, 0xff, 0x04, 0x00, 0x00, 0x00, 
  0x04, 0x00, 0x00, 0x00, 0x40, 0xf9, 0xff, 0xff, 0x00, 0x00, 0x06, 0x00, 0x08, 0x00, 0x04, 0x00, 
  0x06, 0x00, 0x00, 0x00, 0x04, 0x00, 0x00, 0x00, 0x08, 0x00, 0x00, 0x00, 0xff, 0xff, 0xff, 0xff, 
  0xa8, 0x00, 0x00, 0x00, 0x0c, 0xf8, 0xff, 0xff, 0x10, 0xf8, 0xff, 0xff, 0x0f, 0x00, 0x00, 0x00, 
  0x4d, 0x4c, 0x49, 0x52, 0x20, 0x43, 0x6f, 0x6e, 0x76, 0x65, 0x72, 0x74, 0x65, 0x64, 0x2e, 0x00, 
  0x01, 0x00, 0x00, 0x00, 0x14, 0x00, 0x00, 0x00, 0x00, 0x00, 0x0e, 0x00, 0x18, 0x00, 0x14, 0x00, 
  0x10, 0x00, 0x0c, 0x00, 0x08, 0x00, 0x04, 0x00, 0x0e, 0x00, 0x00, 0x00, 0x14, 0x00, 0x00, 0x00, 
  0x1c, 0x00, 0x00, 0x00, 0x84, 0x01, 0x00, 0x00, 0x88, 0x01, 0x00, 0x00, 0x8c, 0x01, 0x00, 0x00, 
  0x04, 0x00, 0x00, 0x00, 0x6d, 0x61, 0x69, 0x6e, 0x00, 0x00, 0x00, 0x00, 0x07, 0x00, 0x00, 0x00, 
  0x4c, 0x01, 0x00, 0x00, 0x1c, 0x01, 0x00, 0x00, 0xdc, 0x00, 0x00, 0x00, 0xa4, 0x00, 0x00, 0x00, 
  0x60, 0x00, 0x00, 0x00, 0x28, 0x00, 0x00, 0x00, 0x04, 0x00, 0x00, 0x00, 0x06, 0xff, 0xff, 0xff, 
  0x0c, 0x00, 0x00, 0x00, 0x10, 0x00, 0x00, 0x00, 0x05, 0x00, 0x00, 0x00, 0x01, 0x00, 0x00, 0x00, 
  0x0d, 0x00, 0x00, 0x00, 0x01, 0x00, 0x00, 0x00, 0x0c, 0x00, 0x00, 0x00, 0x66, 0xff, 0xff, 0xff, 
  0x14, 0x00, 0x00, 0x00, 0x00, 0x00, 0x00, 0x08, 0x10, 0x00, 0x00, 0x00, 0x14, 0x00, 0x00, 0x00, 
  0x04, 0x00, 0x00, 0x00, 0xbc, 0xf8, 0xff, 0xff, 0x01, 0x00, 0x00, 0x00, 0x0c, 0x00, 0x00, 0x00, 
  0x03, 0x00, 0x00, 0x00, 0x0b, 0x00, 0x00, 0x00, 0x03, 0x00, 0x00, 0x00, 0x02, 0x00, 0x00, 0x00, 
  0x9a, 0xff, 0xff, 0xff, 0x1c, 0x00, 0x00, 0x00, 0x00, 0x00, 0x00, 0x08, 0x1c, 0x00, 0x00, 0x00, 
  0x20, 0x00, 0x00, 0x00, 0x04, 0x00, 0x00, 0x00, 0x00, 0x00, 0x06, 0x00, 0x08, 0x00, 0x07, 0x00, 
  0x06, 0x00, 0x00, 0x00, 0x00, 0x00, 0x00, 0x01, 0x01, 0x00, 0x00, 0x00, 0x0b, 0x00, 0x00, 0x00, 
  0x03, 0x00, 0x00, 0x00, 0x0a, 0x00, 0x00, 0x00, 0x05, 0x00, 0x00, 0x00, 0x04, 0x00, 0x00, 0x00, 
  0x9a, 0xff, 0xff, 0xff, 0x0c, 0x00, 0x00, 0x00, 0x10, 0x00, 0x00, 0x00, 0x03, 0x00, 0x00, 0x00, 
  0x01, 0x00, 0x00, 0x00, 0x0a, 0x00, 0x00, 0x00, 0x02, 0x00, 0x00, 0x00, 0x09, 0x00, 0x00, 0x00, 
  0x01, 0x00, 0x00, 0x00, 0x00, 0x00, 0x0e, 0x00, 0x18, 0x00, 0x14, 0x00, 0x10, 0x00, 0x0c, 0x00, 
  0x0b, 0x00, 0x04, 0x00, 0x0e, 0x00, 0x00, 0x00, 0x14, 0x00, 0x00, 0x00, 0x00, 0x00, 0x00, 0x17, 
  0x10, 0x00, 0x00, 0x00, 0x14, 0x00, 0x00, 0x00, 0x02, 0x00, 0x00, 0x00, 0x64, 0xf9, 0xff, 0xff, 
  0x01, 0x00, 0x00, 0x00, 0x09, 0x00, 0x00, 0x00, 0x02, 0x00, 0x00, 0x00, 0x06, 0x00, 0x00, 0x00, 
  0x08, 0x00, 0x00, 0x00, 0x00, 0x00, 0x0a, 0x00, 0x10, 0x00, 0x0c, 0x00, 0x08, 0x00, 0x04, 0x00, 
  0x0a, 0x00, 0x00, 0x00, 0x0c, 0x00, 0x00, 0x00, 0x10, 0x00, 0x00, 0x00, 0x01, 0x00, 0x00, 0x00, 
  0x01, 0x00, 0x00, 0x00, 0x08, 0x00, 0x00, 0x00, 0x01, 0x00, 0x00, 0x00, 0x07, 0x00, 0x00, 0x00, 
  0x00, 0x00, 0x0a, 0x00, 0x0c, 0x00, 0x00, 0x00, 0x08, 0x00, 0x04, 0x00, 0x0a, 0x00, 0x00, 0x00, 
  0x08, 0x00, 0x00, 0x00, 0x0c, 0x00, 0x00, 0x00, 0x01, 0x00, 0x00, 0x00, 0x07, 0x00, 0x00, 0x00, 
  0x01, 0x00, 0x00, 0x00, 0x00, 0x00, 0x00, 0x00, 0x01, 0x00, 0x00, 0x00, 0x0d, 0x00, 0x00, 0x00, 
  0x01, 0x00, 0x00, 0x00, 0x00, 0x00, 0x00, 0x00, 0x0e, 0x00, 0x00, 0x00, 0x64, 0x06, 0x00, 0x00, 
  0xfc, 0x05, 0x00, 0x00, 0x68, 0x05, 0x00, 0x00, 0xfc, 0x04, 0x00, 0x00, 0x88, 0x04, 0x00, 0x00, 
  0x1c, 0x04, 0x00, 0x00, 0xa0, 0x03, 0x00, 0x00, 0x50, 0x03, 0x00, 0x00, 0xd8, 0x02, 0x00, 0x00, 
  0x48, 0x02, 0x00, 0x00, 0xc8, 0x01, 0x00, 0x00, 0x1c, 0x01, 0x00, 0x00, 0x80, 0x00, 0x00, 0x00, 
  0x04, 0x00, 0x00, 0x00, 0xea, 0xf9, 0xff, 0xff, 0x00, 0x00, 0x00, 0x01, 0x18, 0x00, 0x00, 0x00, 
  0x20, 0x00, 0x00, 0x00, 0x3c, 0x00, 0x00, 0x00, 0x0e, 0x00, 0x00, 0x00, 0x00, 0x00, 0x00, 0x09, 
  0x50, 0x00, 0x00, 0x00, 0x02, 0x00, 0x00, 0x00, 0xff, 0xff, 0xff, 0xff, 0x01, 0x00, 0x00, 0x00, 
  0xd4, 0xf9, 0xff, 0xff, 0x08, 0x00, 0x00, 0x00, 0x10, 0x00, 0x00, 0x00, 0x01, 0x00, 0x00, 0x00, 
  0x80, 0xff, 0xff, 0xff, 0xff, 0xff, 0xff, 0xff, 0x01, 0x00, 0x00, 0x00, 0x00, 0x00, 0x80, 0x3b, 
  0x19, 0x00, 0x00, 0x00, 0x53, 0x74, 0x61, 0x74, 0x65, 0x66, 0x75, 0x6c, 0x50, 0x61, 0x72, 0x74, 
  0x69, 0x74, 0x69, 0x6f, 0x6e, 0x65, 0x64, 0x43, 0x61, 0x6c, 0x6c, 0x3a, 0x30, 0x00, 0x00, 0x00, 
  0x02, 0x00, 0x00, 0x00, 0x01, 0x00, 0x00, 0x00, 0x01, 0x00, 0x00, 0x00, 0x62, 0xfa, 0xff, 0xff, 
  0x00, 0x00, 0x00, 0x01, 0x18, 0x00, 0x00, 0x00, 0x20, 0x00, 0x00, 0x00, 0x40, 0x00, 0x00, 0x00, 
  0x0d, 0x00, 0x00, 0x00, 0x00, 0x00, 0x00, 0x09, 0x70, 0x00, 0x00, 0x00, 0x02, 0x00, 0x00, 0x00, 
  0xff, 0xff, 0xff, 0xff, 0x01, 0x00, 0x00, 0x00, 0x4c, 0xfa, 0xff, 0xff, 0x08, 0x00, 0x00, 0x00, 
  0x14, 0x00, 0x00, 0x00, 0x01, 0x00, 0x00, 0x00, 0x15, 0x00, 0x00, 0x00, 0x00, 0x00, 0x00, 0x00, 
  0x00, 0x00, 0x00, 0x00, 0x01, 0x00, 0x00, 0x00, 0xca, 0xa7, 0x72, 0x3d, 0x34, 0x00, 0x00, 0x00, 
  0x73, 0x65, 0x71, 0x75, 0x65, 0x6e, 0x74, 0x69, 0x61, 0x6c, 0x2f, 0x64, 0x65, 0x6e, 0x73, 0x65, 
  0x5f, 0x31, 0x2f, 0x4d, 0x61, 0x74, 0x4d, 0x75, 0x6c, 0x3b, 0x73, 0x65, 0x71, 0x75, 0x65, 0x6e, 
  0x74, 0x69, 0x61, 0x6c, 0x2f, 0x64, 0x65, 0x6e, 0x73, 0x65, 0x5f, 0x31, 0x2f, 0x42, 0x69, 0x61, 
  0x73, 0x41, 0x64, 0x64, 0x00, 0x00, 0x00, 0x00, 0x02, 0x00, 0x00, 0x00, 0x01, 0x00, 0x00, 0x00, 
  0x01, 0x00, 0x00, 0x00, 0xfa, 0xfa, 0xff, 0xff, 0x00, 0x00, 0x00, 0x01, 0x18, 0x00, 0x00, 0x00, 
  0x20, 0x00, 0x00, 0x00, 0x40, 0x00, 0x00, 0x00, 0x0c, 0x00, 0x00, 0x00, 0x00, 0x00, 0x00, 0x09, 
  0x80, 0x00, 0x00, 0x00, 0x02, 0x00, 0x00, 0x00, 0xff, 0xff, 0xff, 0xff, 0x10, 0x00, 0x00, 0x00, 
  0xe4, 0xfa, 0xff, 0xff, 0x08, 0x00, 0x00, 0x00, 0x14, 0x00, 0x00, 0x00, 0x01, 0x00, 0x00, 0x00, 
  0x80, 0xff, 0xff, 0xff, 0xff, 0xff, 0xff, 0xff, 0x00, 0x00, 0x00, 0x00, 0x01, 0x00, 0x00, 0x00, 
  0x5a, 0x27, 0x34, 0x3c, 0x46, 0x00, 0x00, 0x00, 0x73, 0x65, 0x71, 0x75, 0x65, 0x6e, 0x74, 0x69, 
  0x61, 0x6c, 0x2f, 0x64, 0x65, 0x6e, 0x73, 0x65, 0x2f, 0x4d, 0x61, 0x74, 0x4d, 0x75, 0x6c, 0x3b, 
  0x73, 0x65, 0x71, 0x75, 0x65, 0x6e, 0x74, 0x69, 0x61, 0x6c, 0x2f, 0x64, 0x65, 0x6e, 0x73, 0x65, 
  0x2f, 0x52, 0x65, 0x6c, 0x75, 0x3b, 0x73, 0x65, 0x71, 0x75, 0x65, 0x6e, 0x74, 0x69, 0x61, 0x6c, 
  0x2f, 0x64, 0x65, 0x6e, 0x73, 0x65, 0x2f, 0x42, 0x69, 0x61, 0x73, 0x41, 0x64, 0x64, 0x00, 0x00, 
  0x02, 0x00, 0x00, 0x00, 0x01, 0x00, 0x00, 0x00, 0x10, 0x00, 0x00, 0x00, 0xa2, 0xfb, 0xff, 0xff, 
  0x00, 0x00, 0x00, 0x01, 0x18, 0x00, 0x00, 0x00, 0x20, 0x00, 0x00, 0x00, 0x40, 0x00, 0x00, 0x00, 
  0x0b, 0x00, 0x00, 0x00, 0x00, 0x00, 0x00, 0x09, 0x54, 0x00, 0x00, 0x00, 0x02, 0x00, 0x00, 0x00, 
  0xff, 0xff, 0xff, 0xff, 0xa8, 0x00, 0x00, 0x00, 0x8c, 0xfb, 0xff, 0xff, 0x08, 0x00, 0x00, 0x00, 
  0x14, 0x00, 0x00, 0x00, 0x01, 0x00, 0x00, 0x00, 0x00, 0x00, 0x00, 0x00, 0x00, 0x00, 0x00, 0x00, 
  0x00, 0x00, 0x00, 0x00, 0x01, 0x00, 0x00, 0x00, 0x84, 0xe7, 0x23, 0x3b, 0x1a, 0x00, 0x00, 0x00, 
  0x73, 0x65, 0x71, 0x75, 0x65, 0x6e, 0x74, 0x69, 0x61, 0x6c, 0x2f, 0x66, 0x6c, 0x61, 0x74, 0x74, 
  0x65, 0x6e, 0x2f, 0x52, 0x65, 0x73, 0x68, 0x61, 0x70, 0x65, 0x00, 0x00, 0x02, 0x00, 0x00, 0x00, 
  0x01, 0x00, 0x00, 0x00, 0xa8, 0x00, 0x00, 0x00, 0x1e, 0xfc, 0xff, 0xff, 0x00, 0x00, 0x00, 0x01, 
  0x18, 0x00, 0x00, 0x00, 0x24, 0x00, 0x00, 0x00, 0x40, 0x00, 0x00, 0x00, 0x0a, 0x00, 0x00, 0x00, 
  0x00, 0x00, 0x00, 0x09, 0x60, 0x00, 0x00, 0x00, 0x03, 0x00, 0x00, 0x00, 0xff, 0xff, 0xff, 0xff, 
  0x15, 0x00, 0x00, 0x00, 0x08, 0x00, 0x00, 0x00, 0x0c, 0xfc, 0xff, 0xff, 0x08, 0x00, 0x00, 0x00, 
  0x10, 0x00, 0x00, 0x00, 0x01, 0x00, 0x00, 0x00, 0x00, 0x00, 0x00, 0x00, 0x00, 0x00, 0x00, 0x00, 
  0x01, 0x00, 0x00, 0x00, 0x84, 0xe7, 0x23, 0x3b, 0x26, 0x00, 0x00, 0x00, 0x73, 0x65, 0x71, 0x75, 
  0x65, 0x6e, 0x74, 0x69, 0x61, 0x6c, 0x2f, 0x65, 0x6d, 0x62, 0x65, 0x64, 0x64, 0x69, 0x6e, 0x67, 
  0x2f, 0x65, 0x6d, 0x62, 0x65, 0x64, 0x64, 0x69, 0x6e, 0x67, 0x5f, 0x6c, 0x6f, 0x6f, 0x6b, 0x75, 
  0x70, 0x31, 0x00, 0x00, 0x03, 0x00, 0x00, 0x00, 0x01, 0x00, 0x00, 0x00, 0x15, 0x00, 0x00, 0x00, 
  0x08, 0x00, 0x00, 0x00, 0xaa, 0xfc, 0xff, 0xff, 0x00, 0x00, 0x00, 0x01, 0x18, 0x00, 0x00, 0x00, 
  0x20, 0x00, 0x00, 0x00, 0x20, 0x00, 0x00, 0x00, 0x09, 0x00, 0x00, 0x00, 0x00, 0x00, 0x00, 0x02, 
  0x34, 0x00, 0x00, 0x00, 0x02, 0x00, 0x00, 0x00, 0xff, 0xff, 0xff, 0xff, 0x15, 0x00, 0x00, 0x00, 
  0x08, 0xfd, 0xff, 0xff, 0x19, 0x00, 0x00, 0x00, 0x73, 0x65, 0x71, 0x75, 0x65, 0x6e, 0x74, 0x69, 
  0x61, 0x6c, 0x2f, 0x65, 0x6d, 0x62, 0x65, 0x64, 0x64, 0x69, 0x6e, 0x67, 0x2f, 0x43, 0x61, 0x73, 
  0x74, 0x00, 0x00, 0x00, 0x02, 0x00, 0x00, 0x00, 0x01, 0x00, 0x00, 0x00, 0x15, 0x00, 0x00, 0x00, 
  0x00, 0x00, 0x16, 0x00, 0x1c, 0x00, 0x18, 0x00, 0x00, 0x00, 0x14, 0x00, 0x10, 0x00, 0x0c, 0x00, 
  0x00, 0x00, 0x00, 0x00, 0x08, 0x00, 0x07, 0x00, 0x16, 0x00, 0x00, 0x00, 0x00, 0x00, 0x00, 0x01, 
  0x14, 0x00, 0x00, 0x00, 0x1c, 0x00, 0x00, 0x00, 0x1c, 0x00, 0x00, 0x00, 0x08, 0x00, 0x00, 0x00, 
  0x28, 0x00, 0x00, 0x00, 0x02, 0x00, 0x00, 0x00, 0xff, 0xff, 0xff, 0xff, 0x15, 0x00, 0x00, 0x00, 
  0x78, 0xfd, 0xff, 0xff, 0x0e, 0x00, 0x00, 0x00, 0x74, 0x66, 0x6c, 0x2e, 0x64, 0x65, 0x71, 0x75, 
  0x61, 0x6e, 0x74, 0x69, 0x7a, 0x65, 0x00, 0x00, 0x02, 0x00, 0x00, 0x00, 0x01, 0x00, 0x00, 0x00, 
  0x15, 0x00, 0x00, 0x00, 0xce, 0xfd, 0xff, 0xff, 0x00, 0x00, 0x00, 0x01, 0x14, 0x00, 0x00, 0x00, 
  0x34, 0x00, 0x00, 0x00, 0x07, 0x00, 0x00, 0x00, 0x00, 0x00, 0x00, 0x09, 0x54, 0x00, 0x00, 0x00, 
  0x44, 0xfd, 0xff, 0xff, 0x08, 0x00, 0x00, 0x00, 0x14, 0x00, 0x00, 0x00, 0x01, 0x00, 0x00, 0x00, 
  0x00, 0x00, 0x00, 0x00, 0x00, 0x00, 0x00, 0x00, 0x00, 0x00, 0x00, 0x00, 0x01, 0x00, 0x00, 0x00, 
  0x84, 0xe7, 0x23, 0x3b, 0x25, 0x00, 0x00, 0x00, 0x73, 0x65, 0x71, 0x75, 0x65, 0x6e, 0x74, 0x69, 
  0x61, 0x6c, 0x2f, 0x65, 0x6d, 0x62, 0x65, 0x64, 0x64, 0x69, 0x6e, 0x67, 0x2f, 0x65, 0x6d, 0x62, 
  0x65, 0x64, 0x64, 0x69, 0x6e, 0x67, 0x5f, 0x6c, 0x6f, 0x6f, 0x6b, 0x75, 0x70, 0x00, 0x00, 0x00, 
  0x02, 0x00, 0x00, 0x00, 0x61, 0x00, 0x00, 0x00, 0x08, 0x00, 0x00, 0x00, 0x46, 0xfe, 0xff, 0xff, 
  0x00, 0x00, 0x00, 0x01, 0x14, 0x00, 0x00, 0x00, 0x34, 0x00, 0x00, 0x00, 0x06, 0x00, 0x00, 0x00, 
  0x00, 0x00, 0x00, 0x09, 0x44, 0x00, 0x00, 0x00, 0xbc, 0xfd, 0xff, 0xff, 0x08, 0x00, 0x00, 0x00, 
  0x14, 0x00, 0x00, 0x00, 0x01, 0x00, 0x00, 0x00, 0x00, 0x00, 0x00, 0x00, 0x00, 0x00, 0x00, 0x00, 
  0x00, 0x00, 0x00, 0x00, 0x01, 0x00, 0x00, 0x00, 0xb7, 0x39, 0x74, 0x3b, 0x17, 0x00, 0x00, 0x00, 
  0x73, 0x65, 0x71, 0x75, 0x65, 0x6e, 0x74, 0x69, 0x61, 0x6c, 0x2f, 0x64, 0x65, 0x6e, 0x73, 0x65, 
  0x2f, 0x4d, 0x61, 0x74, 0x4d, 0x75, 0x6c, 0x00, 0x02, 0x00, 0x00, 0x00, 0x10, 0x00, 0x00, 0x00, 
  0xa8, 0x00, 0x00, 0x00, 0xae, 0xfe, 0xff, 0xff, 0x00, 0x00, 0x00, 0x01, 0x14, 0x00, 0x00, 0x00, 
  0x30, 0x00, 0x00, 0x00, 0x05, 0x00, 0x00, 0x00, 0x00, 0x00, 0x00, 0x02, 0x50, 0x00, 0x00, 0x00, 
  0x24, 0xfe, 0xff, 0xff, 0x08, 0x00, 0x00, 0x00, 0x10, 0x00, 0x00, 0x00, 0x01, 0x00, 0x00, 0x00, 
  0x00, 0x00, 0x00, 0x00, 0x00, 0x00, 0x00, 0x00, 0x01, 0x00, 0x00, 0x00, 0x9e, 0x5d, 0x1c, 0x37, 
  0x27, 0x00, 0x00, 0x00, 0x73, 0x65, 0x71, 0x75, 0x65, 0x6e, 0x74, 0x69, 0x61, 0x6c, 0x2f, 0x64, 
  0x65, 0x6e, 0x73, 0x65, 0x2f, 0x42, 0x69, 0x61, 0x73, 0x41, 0x64, 0x64, 0x2f, 0x52, 0x65, 0x61, 
  0x64, 0x56, 0x61, 0x72, 0x69, 0x61, 0x62, 0x6c, 0x65, 0x4f, 0x70, 0x00, 0x01, 0x00, 0x00, 0x00, 
  0x10, 0x00, 0x00, 0x00, 0x1e, 0xff, 0xff, 0xff, 0x00, 0x00, 0x00, 0x01, 0x14, 0x00, 0x00, 0x00, 
  0x30, 0x00, 0x00, 0x00, 0x04, 0x00, 0x00, 0x00, 0x00, 0x00, 0x00, 0x09, 0x44, 0x00, 0x00, 0x00, 
  0x94, 0xfe, 0xff, 0xff, 0x08, 0x00, 0x00, 0x00, 0x10, 0x00, 0x00, 0x00, 0x01, 0x00, 0x00, 0x00, 
  0x00, 0x00, 0x00, 0x00, 0x00, 0x00, 0x00, 0x00, 0x01, 0x00, 0x00, 0x00, 0xa3, 0x48, 0xe1, 0x3b, 
  0x19, 0x00, 0x00, 0x00, 0x73, 0x65, 0x71, 0x75, 0x65, 0x6e, 0x74, 0x69, 0x61, 0x6c, 0x2f, 0x64, 
  0x65, 0x6e, 0x73, 0x65, 0x5f, 0x31, 0x2f, 0x4d, 0x61, 0x74, 0x4d, 0x75, 0x6c, 0x00, 0x00, 0x00, 
  0x02, 0x00, 0x00, 0x00, 0x01, 0x00, 0x00, 0x00, 0x10, 0x00, 0x00, 0x00, 0x86, 0xff, 0xff, 0xff, 
  0x00, 0x00, 0x00, 0x01, 0x14, 0x00, 0x00, 0x00, 0x34, 0x00, 0x00, 0x00, 0x03, 0x00, 0x00, 0x00, 
  0x00, 0x00, 0x00, 0x02, 0x58, 0x00, 0x00, 0x00, 0xfc, 0xfe, 0xff, 0xff, 0x08, 0x00, 0x00, 0x00, 
  0x14, 0x00, 0x00, 0x00, 0x01, 0x00, 0x00, 0x00, 0x00, 0x00, 0x00, 0x00, 0x00, 0x00, 0x00, 0x00, 
  0x00, 0x00, 0x00, 0x00, 0x01, 0x00, 0x00, 0x00, 0xb4, 0x89, 0x9e, 0x38, 0x29, 0x00, 0x00, 0x00, 
  0x73, 0x65, 0x71, 0x75, 0x65, 0x6e, 0x74, 0x69, 0x61, 0x6c, 0x2f, 0x64, 0x65, 0x6e, 0x73, 0x65, 
  0x5f, 0x31, 0x2f, 0x42, 0x69, 0x61, 0x73, 0x41, 0x64, 0x64, 0x2f, 0x52, 0x65, 0x61, 0x64, 0x56, 
  0x61, 0x72, 0x69, 0x61, 0x62, 0x6c, 0x65, 0x4f, 0x70, 0x00, 0x00, 0x00, 0x01, 0x00, 0x00, 0x00, 
  0x01, 0x00, 0x00, 0x00, 0x00, 0x00, 0x16, 0x00, 0x1c, 0x00, 0x18, 0x00, 0x17, 0x00, 0x10, 0x00, 
  0x0c, 0x00, 0x08, 0x00, 0x00, 0x00, 0x00, 0x00, 0x00, 0x00, 0x07, 0x00, 0x16, 0x00, 0x00, 0x00, 
  0x00, 0x00, 0x00, 0x01, 0x18, 0x00, 0x00, 0x00, 0x18, 0x00, 0x00, 0x00, 0x02, 0x00, 0x00, 0x00, 
  0x00, 0x00, 0x00, 0x02, 0x2c, 0x00, 0x00, 0x00, 0x04, 0x00, 0x04, 0x00, 0x04, 0x00, 0x00, 0x00, 
  0x18, 0x00, 0x00, 0x00, 0x73, 0x65, 0x71, 0x75, 0x65, 0x6e, 0x74, 0x69, 0x61, 0x6c, 0x2f, 0x66, 
  0x6c, 0x61, 0x74, 0x74, 0x65, 0x6e, 0x2f, 0x43, 0x6f, 0x6e, 0x73, 0x74, 0x00, 0x00, 0x00, 0x00, 
  0x01, 0x00, 0x00, 0x00, 0x02, 0x00, 0x00, 0x00, 0x00, 0x00, 0x16, 0x00, 0x20, 0x00, 0x1c, 0x00, 
  0x1b, 0x00, 0x14, 0x00, 0x10, 0x00, 0x0c, 0x00, 0x00, 0x00, 0x00, 0x00, 0x08, 0x00, 0x07, 0x00, 
  0x16, 0x00, 0x00, 0x00, 0x00, 0x00, 0x00, 0x01, 0x18, 0x00, 0x00, 0x00, 0x2c, 0x00, 0x00, 0x00, 
  0x48, 0x00, 0x00, 0x00, 0x01, 0x00, 0x00, 0x00, 0x00, 0x00, 0x00, 0x09, 0x64, 0x00, 0x00, 0x00, 
  0x02, 0x00, 0x00, 0x00, 0xff, 0xff, 0xff, 0xff, 0x15, 0x00, 0x00, 0x00, 0x0c, 0x00, 0x0c, 0x00, 
  0x00, 0x00, 0x00, 0x00, 0x08, 0x00, 0x04, 0x00, 0x0c, 0x00, 0x00, 0x00, 0x08, 0x00, 0x00, 0x00, 
  0x10, 0x00, 0x00, 0x00, 0x01, 0x00, 0x00, 0x00, 0x80, 0xff, 0xff, 0xff, 0xff, 0xff, 0xff, 0xff, 
  0x01, 0x00, 0x00, 0x00, 0x8b, 0x8a, 0x8a, 0x3e, 0x21, 0x00, 0x00, 0x00, 0x73, 0x65, 0x72, 0x76, 
  0x69, 0x6e, 0x67, 0x5f, 0x64, 0x65, 0x66, 0x61, 0x75, 0x6c, 0x74, 0x5f, 0x65, 0x6d, 0x62, 0x65, 
  0x64, 0x64, 0x69, 0x6e, 0x67, 0x5f, 0x69, 0x6e, 0x70, 0x75, 0x74, 0x3a, 0x30, 0x00, 0x00, 0x00, 
  0x02, 0x00, 0x00, 0x00, 0x01, 0x00, 0x00, 0x00, 0x15, 0x00, 0x00, 0x00, 0x06, 0x00, 0x00, 0x00, 
  0x78, 0x00, 0x00, 0x00, 0x5c, 0x00, 0x00, 0x00, 0x3c, 0x00, 0x00, 0x00, 0x2c, 0x00, 0x00, 0x00, 
  0x18, 0x00, 0x00, 0x00, 0x04, 0x00, 0x00, 0x00, 0xac, 0xff, 0xff, 0xff, 0x0e, 0x00, 0x00, 0x00, 
  0x02, 0x00, 0x00, 0x00, 0x00, 0x00, 0x00, 0x0e, 0xbc, 0xff, 0xff, 0xff, 0x09, 0x00, 0x00, 0x00, 
  0x04, 0x00, 0x00, 0x00, 0x00, 0x00, 0x00, 0x09, 0xe4, 0xff, 0xff, 0xff, 0x16, 0x00, 0x00, 0x00, 
  0x00, 0x00, 0x00, 0x16, 0xd8, 0xff, 0xff, 0xff, 0x24, 0x00, 0x00, 0x00, 0x02, 0x00, 0x00, 0x00, 
  0x00, 0x00, 0x00, 0x24, 0x0c, 0x00, 0x0c, 0x00, 0x0b, 0x00, 0x00, 0x00, 0x00, 0x00, 0x04, 0x00, 
  0x0c, 0x00, 0x00, 0x00, 0x35, 0x00, 0x00, 0x00, 0x00, 0x00, 0x00, 0x35, 0x0c, 0x00, 0x10, 0x00, 
  0x0f, 0x00, 0x00, 0x00, 0x08, 0x00, 0x04, 0x00, 0x0c, 0x00, 0x00, 0x00, 0x06, 0x00, 0x00, 0x00, 
  0x02, 0x00, 0x00, 0x00, 0x00, 0x00, 0x00, 0x06, 
};

const unsigned int sbd_model_tflite_len = 6520;

#endif // SBD_MODEL_H
